unsigned char models_mnist_tflite[] = {
  0x1c, 0x00, 0x00, 0x00, 0x54, 0x46, 0x4c, 0x33, 0x14, 0x00, 0x20, 0x00,
  0x04, 0x00, 0x08, 0x00, 0x0c, 0x00, 0x10, 0x00, 0x14, 0x00, 0x00, 0x00,
  0x18, 0x00, 0x1c, 0x00, 0x14, 0x00, 0x00, 0x00, 0x03, 0x00, 0x00, 0x00,
  0x18, 0x00, 0x00, 0x00, 0x28, 0x00, 0x00, 0x00, 0xb4, 0x00, 0x00, 0x00,
  0x28, 0x00, 0x00, 0x00, 0x5c, 0x00, 0x00, 0x00, 0x54, 0x00, 0x00, 0x00,
  0x04, 0x00, 0x00, 0x00, 0xac, 0x03, 0x00, 0x00, 0xc4, 0x02, 0x00, 0x00,
  0xf4, 0x01, 0x00, 0x00, 0x6c, 0x01, 0x00, 0x00, 0x01, 0x00, 0x00, 0x00,
  0xb0, 0x00, 0x00, 0x00, 0x0c, 0x00, 0x00, 0x00, 0xbc, 0x11, 0x00, 0x00,
  0xb8, 0x11, 0x00, 0x00, 0xbc, 0x10, 0x00, 0x00, 0x1c, 0x10, 0x00, 0x00,
  0xac, 0x0f, 0x00, 0x00, 0x54, 0x05, 0x00, 0x00, 0x64, 0x04, 0x00, 0x00,
  0xa0, 0x11, 0x00, 0x00, 0x9c, 0x11, 0x00, 0x00, 0x98, 0x11, 0x00, 0x00,
  0x94, 0x11, 0x00, 0x00, 0x3c, 0x00, 0x00, 0x00, 0x00, 0x00, 0x00, 0x00,
  0x01, 0x00, 0x00, 0x00, 0x0c, 0x00, 0x00, 0x00, 0x08, 0x00, 0x0c, 0x00,
  0x04, 0x00, 0x08, 0x00, 0x08, 0x00, 0x00, 0x00, 0x08, 0x00, 0x00, 0x00,
  0x0b, 0x00, 0x00, 0x00, 0x13, 0x00, 0x00, 0x00, 0x6d, 0x69, 0x6e, 0x5f,
  0x72, 0x75, 0x6e, 0x74, 0x69, 0x6d, 0x65, 0x5f, 0x76, 0x65, 0x72, 0x73,
  0x69, 0x6f, 0x6e, 0x00, 0xaa, 0xef, 0xff, 0xff, 0x04, 0x00, 0x00, 0x00,
  0x10, 0x00, 0x00, 0x00, 0x31, 0x2e, 0x35, 0x2e, 0x30, 0x00, 0x00, 0x00,
  0x00, 0x00, 0x00, 0x00, 0x00, 0x00, 0x00, 0x00, 0x0f, 0x00, 0x00, 0x00,
  0x4d, 0x4c, 0x49, 0x52, 0x20, 0x43, 0x6f, 0x6e, 0x76, 0x65, 0x72, 0x74,
  0x65, 0x64, 0x2e, 0x00, 0x00, 0x00, 0x0e, 0x00, 0x18, 0x00, 0x04, 0x00,
  0x08, 0x00, 0x0c, 0x00, 0x10, 0x00, 0x14, 0x00, 0x0e, 0x00, 0x00, 0x00,
  0x14, 0x00, 0x00, 0x00, 0x3c, 0x00, 0x00, 0x00, 0x40, 0x00, 0x00, 0x00,
  0x44, 0x00, 0x00, 0x00, 0x54, 0x00, 0x00, 0x00, 0x0a, 0x00, 0x00, 0x00,
  0x9c, 0x10, 0x00, 0x00, 0x28, 0x10, 0x00, 0x00, 0x90, 0x0f, 0x00, 0x00,
  0x10, 0x0f, 0x00, 0x00, 0xa0, 0x0e, 0x00, 0x00, 0x40, 0x04, 0x00, 0x00,
  0xc4, 0x02, 0x00, 0x00, 0xdc, 0x01, 0x00, 0x00, 0x0c, 0x01, 0x00, 0x00,
  0x84, 0x00, 0x00, 0x00, 0x01, 0x00, 0x00, 0x00, 0x00, 0x00, 0x00, 0x00,
  0x01, 0x00, 0x00, 0x00, 0x09, 0x00, 0x00, 0x00, 0x04, 0x00, 0x00, 0x00,
  0x3c, 0x02, 0x00, 0x00, 0x58, 0x01, 0x00, 0x00, 0xb4, 0x00, 0x00, 0x00,
  0x1c, 0x00, 0x00, 0x00, 0x04, 0x00, 0x00, 0x00, 0x6d, 0x61, 0x69, 0x6e,
  0x00, 0x00, 0x0e, 0x00, 0x18, 0x00, 0x08, 0x00, 0x0c, 0x00, 0x10, 0x00,
  0x07, 0x00, 0x14, 0x00, 0x0e, 0x00, 0x00, 0x00, 0x00, 0x00, 0x00, 0x08,
  0x03, 0x00, 0x00, 0x00, 0x18, 0x00, 0x00, 0x00, 0x0c, 0x00, 0x00, 0x00,
  0x04, 0x00, 0x00, 0x00, 0x88, 0xef, 0xff, 0xff, 0x01, 0x00, 0x00, 0x00,
  0x09, 0x00, 0x00, 0x00, 0x03, 0x00, 0x00, 0x00, 0x08, 0x00, 0x00, 0x00,
  0x04, 0x00, 0x00, 0x00, 0x02, 0x00, 0x00, 0x00, 0xd8, 0xfd, 0xff, 0xff,
  0x09, 0x00, 0x00, 0x00, 0x00, 0x00, 0x00, 0x09, 0x01, 0x00, 0x00, 0x00,
  0x20, 0xf0, 0xff, 0xff, 0x14, 0x00, 0x00, 0x00, 0x0a, 0x00, 0x00, 0x00,
  0x18, 0x00, 0x00, 0x00, 0x30, 0x00, 0x00, 0x00, 0x20, 0x00, 0x00, 0x00,
  0x02, 0x00, 0x00, 0x00, 0x01, 0x00, 0x00, 0x00, 0x0a, 0x00, 0x00, 0x00,
  0x08, 0x00, 0x00, 0x00, 0x49, 0x64, 0x65, 0x6e, 0x74, 0x69, 0x74, 0x79,
  0x00, 0x00, 0x00, 0x00, 0x02, 0x00, 0x00, 0x00, 0xff, 0xff, 0xff, 0xff,
  0x0a, 0x00, 0x00, 0x00, 0xf8, 0xf0, 0xff, 0xff, 0x00, 0x00, 0x0a, 0x00,
  0x10, 0x00, 0x04, 0x00, 0x08, 0x00, 0x0c, 0x00, 0x0a, 0x00, 0x00, 0x00,
  0x02, 0x00, 0x00, 0x00, 0x10, 0x00, 0x00, 0x00, 0x04, 0x00, 0x00, 0x00,
  0x01, 0x00, 0x00, 0x00, 0x08, 0x00, 0x00, 0x00, 0x02, 0x00, 0x00, 0x00,
  0x07, 0x00, 0x00, 0x00, 0x03, 0x00, 0x00, 0x00, 0x5c, 0xfe, 0xff, 0xff,
  0x16, 0x00, 0x00, 0x00, 0x00, 0x00, 0x00, 0x16, 0x01, 0x00, 0x00, 0x00,
  0xa4, 0xf0, 0xff, 0xff, 0x14, 0x00, 0x00, 0x00, 0x09, 0x00, 0x00, 0x00,
  0x18, 0x00, 0x00, 0x00, 0x48, 0x00, 0x00, 0x00, 0x38, 0x00, 0x00, 0x00,
  0x02, 0x00, 0x00, 0x00, 0x01, 0x00, 0x00, 0x00, 0x40, 0x00, 0x00, 0x00,
  0x20, 0x00, 0x00, 0x00, 0x73, 0x65, 0x71, 0x75, 0x65, 0x6e, 0x74, 0x69,
  0x61, 0x6c, 0x5f, 0x31, 0x30, 0x2f, 0x66, 0x6c, 0x61, 0x74, 0x74, 0x65,
  0x6e, 0x5f, 0x31, 0x30, 0x2f, 0x52, 0x65, 0x73, 0x68, 0x61, 0x70, 0x65,
  0x00, 0x00, 0x00, 0x00, 0x02, 0x00, 0x00, 0x00, 0xff, 0xff, 0xff, 0xff,
  0x40, 0x00, 0x00, 0x00, 0x94, 0xf1, 0xff, 0xff, 0x00, 0x00, 0x0e, 0x00,
  0x1a, 0x00, 0x08, 0x00, 0x0c, 0x00, 0x10, 0x00, 0x07, 0x00, 0x14, 0x00,
  0x0e, 0x00, 0x00, 0x00, 0x00, 0x00, 0x00, 0x05, 0x01, 0x00, 0x00, 0x00,
  0x3c, 0x00, 0x00, 0x00, 0x30, 0x00, 0x00, 0x00, 0x14, 0x00, 0x00, 0x00,
  0x00, 0x00, 0x0e, 0x00, 0x18, 0x00, 0x17, 0x00, 0x10, 0x00, 0x0c, 0x00,
  0x08, 0x00, 0x04, 0x00, 0x0e, 0x00, 0x00, 0x00, 0x02, 0x00, 0x00, 0x00,
  0x02, 0x00, 0x00, 0x00, 0x02, 0x00, 0x00, 0x00, 0x02, 0x00, 0x00, 0x00,
  0x00, 0x00, 0x00, 0x01, 0x01, 0x00, 0x00, 0x00, 0x07, 0x00, 0x00, 0x00,
  0x01, 0x00, 0x00, 0x00, 0x06, 0x00, 0x00, 0x00, 0x28, 0xff, 0xff, 0xff,
  0x11, 0x00, 0x00, 0x00, 0x00, 0x00, 0x00, 0x11, 0x01, 0x00, 0x00, 0x00,
  0x70, 0xf1, 0xff, 0xff, 0x14, 0x00, 0x00, 0x00, 0x08, 0x00, 0x00, 0x00,
  0x20, 0x00, 0x00, 0x00, 0x5c, 0x00, 0x00, 0x00, 0x44, 0x00, 0x00, 0x00,
  0x04, 0x00, 0x00, 0x00, 0x01, 0x00, 0x00, 0x00, 0x04, 0x00, 0x00, 0x00,
  0x04, 0x00, 0x00, 0x00, 0x04, 0x00, 0x00, 0x00, 0x26, 0x00, 0x00, 0x00,
  0x73, 0x65, 0x71, 0x75, 0x65, 0x6e, 0x74, 0x69, 0x61, 0x6c, 0x5f, 0x31,
  0x30, 0x2f, 0x6d, 0x61, 0x78, 0x5f, 0x70, 0x6f, 0x6f, 0x6c, 0x69, 0x6e,
  0x67, 0x32, 0x64, 0x5f, 0x31, 0x30, 0x2f, 0x4d, 0x61, 0x78, 0x50, 0x6f,
  0x6f, 0x6c, 0x00, 0x00, 0x04, 0x00, 0x00, 0x00, 0xff, 0xff, 0xff, 0xff,
  0x04, 0x00, 0x00, 0x00, 0x04, 0x00, 0x00, 0x00, 0x04, 0x00, 0x00, 0x00,
  0x74, 0xf2, 0xff, 0xff, 0x00, 0x00, 0x0e, 0x00, 0x14, 0x00, 0x00, 0x00,
  0x08, 0x00, 0x0c, 0x00, 0x07, 0x00, 0x10, 0x00, 0x0e, 0x00, 0x00, 0x00,
  0x00, 0x00, 0x00, 0x01, 0x30, 0x00, 0x00, 0x00, 0x24, 0x00, 0x00, 0x00,
  0x10, 0x00, 0x00, 0x00, 0x0c, 0x00, 0x10, 0x00, 0x0e, 0x00, 0x04, 0x00,
  0x08, 0x00, 0x0f, 0x00, 0x0c, 0x00, 0x00, 0x00, 0x03, 0x00, 0x00, 0x00,
  0x03, 0x00, 0x00, 0x00, 0x00, 0x00, 0x01, 0x01, 0x01, 0x00, 0x00, 0x00,
  0x06, 0x00, 0x00, 0x00, 0x03, 0x00, 0x00, 0x00, 0x00, 0x00, 0x00, 0x00,
  0x05, 0x00, 0x00, 0x00, 0x01, 0x00, 0x00, 0x00, 0x0c, 0x00, 0x10, 0x00,
  0x0b, 0x00, 0x00, 0x00, 0x0c, 0x00, 0x04, 0x00, 0x0c, 0x00, 0x00, 0x00,
  0x03, 0x00, 0x00, 0x00, 0x00, 0x00, 0x00, 0x03, 0x01, 0x00, 0x00, 0x00,
  0x54, 0xf2, 0xff, 0xff, 0x14, 0x00, 0x00, 0x00, 0x07, 0x00, 0x00, 0x00,
  0x20, 0x00, 0x00, 0x00, 0xc8, 0x00, 0x00, 0x00, 0xb0, 0x00, 0x00, 0x00,
  0x04, 0x00, 0x00, 0x00, 0x01, 0x00, 0x00, 0x00, 0x09, 0x00, 0x00, 0x00,
  0x09, 0x00, 0x00, 0x00, 0x04, 0x00, 0x00, 0x00, 0x93, 0x00, 0x00, 0x00,
  0x73, 0x65, 0x71, 0x75, 0x65, 0x6e, 0x74, 0x69, 0x61, 0x6c, 0x5f, 0x31,
  0x30, 0x2f, 0x63, 0x6f, 0x6e, 0x76, 0x32, 0x64, 0x5f, 0x31, 0x30, 0x2f,
  0x52, 0x65, 0x6c, 0x75, 0x3b, 0x73, 0x65, 0x71, 0x75, 0x65, 0x6e, 0x74,
  0x69, 0x61, 0x6c, 0x5f, 0x31, 0x30, 0x2f, 0x63, 0x6f, 0x6e, 0x76, 0x32,
  0x64, 0x5f, 0x31, 0x30, 0x2f, 0x42, 0x69, 0x61, 0x73, 0x41, 0x64, 0x64,
  0x3b, 0x73, 0x65, 0x71, 0x75, 0x65, 0x6e, 0x74, 0x69, 0x61, 0x6c, 0x5f,
  0x31, 0x30, 0x2f, 0x63, 0x6f, 0x6e, 0x76, 0x32, 0x64, 0x5f, 0x31, 0x30,
  0x2f, 0x43, 0x6f, 0x6e, 0x76, 0x32, 0x44, 0x3b, 0x73, 0x65, 0x71, 0x75,
  0x65, 0x6e, 0x74, 0x69, 0x61, 0x6c, 0x5f, 0x31, 0x30, 0x2f, 0x63, 0x6f,
  0x6e, 0x76, 0x32, 0x64, 0x5f, 0x31, 0x30, 0x2f, 0x42, 0x69, 0x61, 0x73,
  0x41, 0x64, 0x64, 0x2f, 0x52, 0x65, 0x61, 0x64, 0x56, 0x61, 0x72, 0x69,
  0x61, 0x62, 0x6c, 0x65, 0x4f, 0x70, 0x2f, 0x72, 0x65, 0x73, 0x6f, 0x75,
  0x72, 0x63, 0x65, 0x00, 0x04, 0x00, 0x00, 0x00, 0xff, 0xff, 0xff, 0xff,
  0x09, 0x00, 0x00, 0x00, 0x09, 0x00, 0x00, 0x00, 0x04, 0x00, 0x00, 0x00,
  0xc0, 0xf2, 0xff, 0xff, 0xbe, 0xf3, 0xff, 0xff, 0x04, 0x00, 0x00, 0x00,
  0x90, 0x00, 0x00, 0x00, 0x2f, 0x2c, 0xe0, 0x3e, 0x3c, 0xa1, 0x52, 0x3f,
  0x68, 0xd4, 0x8b, 0x3f, 0xea, 0xaa, 0xd4, 0xbe, 0xf7, 0x8c, 0xf6, 0x3e,
  0x43, 0x29, 0xff, 0x3e, 0xd5, 0x61, 0xc0, 0xbf, 0x24, 0xc8, 0x02, 0xc0,
  0x0e, 0x1d, 0xeb, 0xbf, 0xa9, 0x69, 0x8f, 0xbf, 0xc3, 0x33, 0xc3, 0xbd,
  0x93, 0x80, 0xa2, 0x3f, 0x9b, 0xaa, 0x01, 0xbf, 0x37, 0x1b, 0xa5, 0x3e,
  0xf2, 0xd4, 0x25, 0x3f, 0x53, 0x14, 0xb4, 0x3e, 0xcd, 0xb9, 0x7c, 0x3f,
  0x86, 0x7b, 0x6e, 0x3e, 0x40, 0x76, 0xbf, 0x3f, 0xea, 0x67, 0x61, 0x3f,
  0xe0, 0xc7, 0xa2, 0x3d, 0xc4, 0xa5, 0x24, 0x3f, 0x52, 0x99, 0x16, 0x3f,
  0xf3, 0xfb, 0x30, 0x3f, 0x88, 0x9d, 0x4f, 0x3e, 0x3d, 0x42, 0xc1, 0x3e,
  0xf0, 0x95, 0xa1, 0x3f, 0x9f, 0x93, 0x32, 0xbf, 0xc9, 0xee, 0xdb, 0xbf,
  0x9a, 0xc4, 0xb0, 0xbf, 0x39, 0x8a, 0x43, 0x3f, 0x96, 0x67, 0xb2, 0x3e,
  0x95, 0x8b, 0x15, 0xbf, 0x38, 0xe9, 0x8c, 0x3f, 0x42, 0x96, 0x84, 0x3f,
  0xd9, 0x3e, 0x09, 0x3f, 0x36, 0xf4, 0xff, 0xff, 0x10, 0x00, 0x00, 0x00,
  0x06, 0x00, 0x00, 0x00, 0x1c, 0x00, 0x00, 0x00, 0x3c, 0x00, 0x00, 0x00,
  0x04, 0x00, 0x00, 0x00, 0x04, 0x00, 0x00, 0x00, 0x03, 0x00, 0x00, 0x00,
  0x03, 0x00, 0x00, 0x00, 0x01, 0x00, 0x00, 0x00, 0x1e, 0x00, 0x00, 0x00,
  0x73, 0x65, 0x71, 0x75, 0x65, 0x6e, 0x74, 0x69, 0x61, 0x6c, 0x5f, 0x31,
  0x30, 0x2f, 0x63, 0x6f, 0x6e, 0x76, 0x32, 0x64, 0x5f, 0x31, 0x30, 0x2f,
  0x43, 0x6f, 0x6e, 0x76, 0x32, 0x44, 0x00, 0x00, 0xac, 0xf3, 0xff, 0xff,
  0xaa, 0xf4, 0xff, 0xff, 0x04, 0x00, 0x00, 0x00, 0x00, 0x0a, 0x00, 0x00,
  0x27, 0xed, 0xd9, 0xbe, 0x2f, 0x5e, 0xc1, 0xbe, 0x63, 0xc0, 0x12, 0xbf,
  0xf2, 0x2d, 0xf2, 0xbe, 0x8c, 0xff, 0x1e, 0xbf, 0x3b, 0xb0, 0x8c, 0xbe,
  0x6a, 0x3d, 0x12, 0xbe, 0xed, 0xc1, 0xd3, 0xbd, 0x6e, 0x68, 0x1a, 0xbf,
  0x65, 0x88, 0x00, 0xbc, 0x96, 0x79, 0x36, 0x3e, 0xca, 0x68, 0x09, 0x3e,
  0x9c, 0x20, 0xe7, 0xbe, 0xab, 0xe1, 0xb1, 0x3d, 0x7c, 0x2d, 0x04, 0xbd,
  0xb9, 0x1d, 0xda, 0xbc, 0xa3, 0x57, 0xa8, 0xbe, 0x41, 0x4a, 0xf7, 0xbd,
  0xae, 0x13, 0xc1, 0xbe, 0xbc, 0xed, 0x8b, 0xbd, 0x75, 0x88, 0xf6, 0xbe,
  0x0c, 0x8c, 0x1a, 0x3d, 0x19, 0x14, 0xef, 0xbb, 0x3d, 0x54, 0x70, 0xbe,
  0x3f, 0x6b, 0xed, 0xbd, 0xd5, 0x17, 0x62, 0x3d, 0xa3, 0x8c, 0x74, 0x3e,
  0x1b, 0x64, 0x8f, 0xbe, 0x2d, 0x57, 0x21, 0x3e, 0x64, 0xfc, 0xaa, 0xbe,
  0x01, 0x5d, 0xe3, 0x3e, 0x16, 0xd8, 0xae, 0x3e, 0xed, 0x4b, 0x30, 0x3d,
  0x18, 0xd8, 0xa8, 0x3e, 0x45, 0x76, 0xc5, 0x3b, 0x96, 0xa1, 0x6a, 0xbe,
  0x3e, 0xaa, 0x0b, 0xbf, 0x80, 0x17, 0xd6, 0x3e, 0x6e, 0x07, 0x10, 0x3e,
  0xc5, 0xa5, 0xa2, 0xbe, 0xf4, 0x6d, 0x59, 0xbf, 0xe8, 0x2f, 0x35, 0xbf,
  0x8d, 0x67, 0x91, 0xbf, 0xaf, 0xee, 0x5f, 0xbf, 0xe5, 0x5c, 0x21, 0xbe,
  0xc5, 0x09, 0x9f, 0x3e, 0x50, 0x6c, 0x80, 0x3e, 0x36, 0x3f, 0x0d, 0x3e,
  0xd0, 0xd3, 0x20, 0xbe, 0xb9, 0x06, 0x3e, 0x3e, 0x2c, 0x6a, 0x5e, 0xbe,
  0x4e, 0x2e, 0x04, 0xbf, 0x66, 0xa7, 0x80, 0x3e, 0xa0, 0xf9, 0x96, 0x3e,
  0x3e, 0x35, 0x93, 0x3e, 0x11, 0xfa, 0x8a, 0x3e, 0xf2, 0xe3, 0x57, 0x3c,
  0x54, 0xc1, 0x74, 0x3e, 0xfb, 0x47, 0x86, 0x3b, 0x26, 0xc8, 0xfb, 0x3d,
  0x84, 0xf1, 0xa4, 0x3e, 0xeb, 0x02, 0xf6, 0x3d, 0x6c, 0x1a, 0x98, 0xbe,
  0xa7, 0x5a, 0x34, 0xbe, 0xb1, 0xe5, 0x8c, 0x3f, 0x05, 0xba, 0xe7, 0x3e,
  0x1a, 0x2d, 0x61, 0x3e, 0xa0, 0x54, 0x57, 0xbd, 0xc8, 0xa9, 0xcd, 0x3e,
  0xa3, 0x19, 0x38, 0xbe, 0xd4, 0x24, 0x4e, 0xbe, 0xf0, 0x75, 0x6f, 0xbd,
  0xe2, 0xab, 0x9f, 0xbc, 0x1c, 0x64, 0x4e, 0xbb, 0x64, 0xb2, 0x50, 0x3e,
  0xdf, 0xcb, 0x9b, 0x3d, 0x5f, 0xca, 0x21, 0x3e, 0x6c, 0xa8, 0xea, 0x3e,
  0xe8, 0x9e, 0x8c, 0x3d, 0xde, 0x5c, 0x94, 0x3e, 0xd1, 0x8b, 0x8c, 0x3f,
  0xc1, 0xdb, 0xe1, 0xbe, 0xe5, 0xdb, 0x27, 0xbf, 0xa3, 0x23, 0x77, 0xbe,
  0x4d, 0x69, 0x29, 0xbe, 0x62, 0x84, 0xf1, 0xbe, 0xb4, 0xf3, 0xe8, 0xbe,
  0x87, 0x6a, 0x10, 0xbf, 0xa1, 0xa2, 0x9a, 0xbf, 0xef, 0x91, 0xc4, 0x3e,
  0xf4, 0xfd, 0x16, 0x3f, 0x61, 0xa3, 0xb5, 0x3c, 0xe3, 0x7a, 0xa7, 0xbe,
  0x6c, 0x86, 0xc0, 0x3e, 0x3c, 0xc6, 0x8c, 0xbe, 0x26, 0x55, 0x1c, 0xbf,
  0x6a, 0xea, 0x5e, 0x3f, 0x66, 0xf0, 0x7f, 0xbf, 0x50, 0xa7, 0x1e, 0xbf,
  0x6f, 0xcb, 0x62, 0xbf, 0x0d, 0x5f, 0x65, 0xbf, 0xc1, 0x6a, 0x14, 0xbf,
  0x36, 0x15, 0xf7, 0xbe, 0xef, 0xa9, 0x19, 0xbf, 0x51, 0xac, 0x52, 0xbe,
  0x46, 0x46, 0x2a, 0x3f, 0xe2, 0xb8, 0xbf, 0x3d, 0x06, 0x18, 0x88, 0xbe,
  0x04, 0xed, 0x0b, 0xbf, 0xa4, 0x5a, 0xcb, 0xbe, 0x0b, 0xaf, 0x1a, 0xbf,
  0x14, 0x6d, 0x7b, 0xbf, 0xf8, 0x0c, 0xba, 0x3e, 0xbc, 0x4b, 0xdc, 0xbc,
  0x3f, 0xdc, 0x87, 0x3e, 0xc4, 0x4a, 0xf9, 0xbe, 0x7c, 0xcc, 0x7d, 0xbe,
  0x53, 0x70, 0xfd, 0xbc, 0x15, 0xc5, 0x91, 0xbe, 0x27, 0x81, 0xda, 0xbe,
  0x03, 0x42, 0x9b, 0xbe, 0x54, 0xe9, 0x9d, 0xbe, 0xaf, 0x13, 0x97, 0x3d,
  0x74, 0x7e, 0x62, 0xbe, 0xbd, 0x96, 0x5b, 0x3e, 0xba, 0xbb, 0xd3, 0x3d,
  0x4b, 0xe9, 0x97, 0x3e, 0x1c, 0xfb, 0x59, 0x3e, 0xa8, 0x3e, 0x06, 0xbf,
  0x29, 0x0a, 0x55, 0xbe, 0xe7, 0x86, 0x8c, 0xbd, 0xa1, 0xd7, 0x37, 0xbd,
  0x8c, 0xc8, 0x18, 0x3f, 0xcc, 0x9d, 0xae, 0x3b, 0x5d, 0xdd, 0x6b, 0x3e,
  0x23, 0x6d, 0xb4, 0xbd, 0x78, 0xa1, 0xe2, 0x3e, 0x9a, 0x25, 0xfc, 0xbb,
  0xab, 0x16, 0xc4, 0x3e, 0xe2, 0xad, 0x25, 0x3e, 0xda, 0x3c, 0x06, 0xbf,
  0x6c, 0x22, 0x7b, 0xbe, 0xa2, 0x5c, 0x20, 0x3e, 0x84, 0xc1, 0x75, 0xb9,
  0x7f, 0x7b, 0x53, 0x3e, 0x56, 0x4e, 0x15, 0x3e, 0x6b, 0xc5, 0x97, 0x3d,
  0xbb, 0x02, 0x91, 0x3e, 0xa4, 0x57, 0x40, 0x3f, 0x60, 0x53, 0x7e, 0xbe,
  0xca, 0x79, 0x2e, 0xbe, 0x31, 0x35, 0xb1, 0xbd, 0xf6, 0x28, 0x7d, 0x3e,
  0xc2, 0x93, 0x8a, 0xbe, 0x84, 0x6d, 0x86, 0x3c, 0xb8, 0x4c, 0x60, 0xbe,
  0x03, 0x10, 0x0d, 0xbf, 0x95, 0xa5, 0x93, 0xbe, 0x23, 0xff, 0x9d, 0x3c,
  0x0e, 0xde, 0xa3, 0x3d, 0x38, 0x9c, 0x44, 0xbf, 0x6d, 0x0b, 0xd3, 0xbd,
  0xa2, 0xd6, 0x02, 0xbe, 0x41, 0x14, 0xdb, 0x3e, 0x0f, 0xc4, 0xbe, 0xbe,
  0x0d, 0x13, 0xda, 0xbd, 0x73, 0x68, 0xa1, 0xbe, 0x70, 0x3f, 0x89, 0x3d,
  0xd4, 0xd2, 0x6c, 0xbe, 0x71, 0x47, 0x32, 0x3e, 0x04, 0x21, 0xca, 0xbd,
  0x3e, 0x26, 0x13, 0x3e, 0xa8, 0x73, 0x1a, 0xbd, 0x1b, 0xea, 0x0f, 0x3e,
  0x51, 0x96, 0xbd, 0xbd, 0x78, 0x53, 0x95, 0xbd, 0xb1, 0x7c, 0x02, 0x3e,
  0xbc, 0xce, 0x96, 0x3e, 0x1d, 0xb3, 0x6c, 0x3e, 0x1b, 0xa8, 0xe7, 0x3d,
  0xc9, 0x03, 0x88, 0x3e, 0xaa, 0x93, 0xc9, 0x3e, 0x6a, 0xfe, 0x1a, 0x3e,
  0x71, 0x1d, 0x70, 0x3d, 0xce, 0xb0, 0xd3, 0x3c, 0x5b, 0xdd, 0xe5, 0xbd,
  0xb5, 0x4a, 0x57, 0xbd, 0xeb, 0x04, 0x27, 0xbe, 0xc9, 0x97, 0x55, 0x3f,
  0x04, 0xf0, 0x8a, 0xbe, 0xd2, 0x7a, 0x8c, 0x3e, 0x21, 0x8e, 0x25, 0x3f,
  0xd6, 0xe1, 0x66, 0xbf, 0x33, 0xbf, 0x66, 0x3e, 0x4c, 0x9e, 0x4e, 0x3e,
  0x91, 0xe0, 0x93, 0x3d, 0xee, 0xf2, 0x78, 0xbe, 0x68, 0x27, 0xda, 0x3c,
  0x7b, 0x97, 0x33, 0x3e, 0x67, 0x71, 0xb4, 0x3d, 0xb8, 0xc9, 0x38, 0x3d,
  0xa9, 0x74, 0xe1, 0x3a, 0x11, 0xbd, 0x46, 0x3e, 0xcb, 0xfd, 0xa7, 0x3e,
  0x2c, 0x4d, 0x70, 0xbf, 0x57, 0x8c, 0x2a, 0xbe, 0xa9, 0x4e, 0x0a, 0xbe,
  0x92, 0xc2, 0x45, 0x3d, 0xb3, 0x07, 0x0a, 0x3e, 0x2b, 0x79, 0x80, 0x3d,
  0xff, 0xca, 0x8a, 0x3e, 0xef, 0x76, 0xbc, 0x3e, 0x9f, 0xf5, 0x34, 0x3f,
  0x1c, 0x6d, 0x87, 0xbe, 0x72, 0xf7, 0x03, 0xbe, 0xee, 0x5b, 0xd8, 0x3b,
  0xa1, 0x36, 0x7b, 0x3e, 0x41, 0x2f, 0x82, 0x3e, 0xc4, 0x54, 0x09, 0x3e,
  0x7c, 0xed, 0xd0, 0x3d, 0xfe, 0x11, 0xc3, 0xbe, 0xcd, 0xa4, 0x26, 0xbe,
  0xc5, 0x50, 0xdd, 0x3d, 0xa1, 0xa4, 0xdc, 0xbb, 0xb9, 0x8d, 0x0e, 0xbf,
  0x5b, 0x18, 0xb2, 0xbe, 0xe7, 0xa1, 0xa5, 0xbe, 0xee, 0x95, 0x9d, 0x3e,
  0xf4, 0xce, 0xad, 0x3d, 0xe6, 0xe0, 0xde, 0xbe, 0x2e, 0x9a, 0xe9, 0xbe,
  0x7e, 0x2f, 0x35, 0xbe, 0xab, 0x80, 0x18, 0x3f, 0x64, 0x05, 0xd6, 0xbe,
  0x7e, 0xaa, 0x2d, 0x3e, 0xf5, 0xf2, 0xd1, 0x3d, 0x24, 0x94, 0x39, 0xbe,
  0xce, 0x35, 0x9f, 0xbe, 0x26, 0xbb, 0x06, 0x3d, 0x55, 0x22, 0xb3, 0x3e,
  0x1c, 0xce, 0x38, 0x3e, 0x4c, 0x82, 0x96, 0xbd, 0x90, 0xa7, 0xd4, 0x3e,
  0x2b, 0x54, 0x51, 0x3f, 0x20, 0xae, 0xe2, 0xbd, 0x03, 0x82, 0xb4, 0xbe,
  0x9a, 0x3e, 0xf5, 0xbc, 0x34, 0xd2, 0x15, 0x3f, 0x5a, 0x7d, 0x15, 0xbd,
  0x8e, 0x31, 0xab, 0x3e, 0xd9, 0x8b, 0x3e, 0xbe, 0x4b, 0x01, 0x31, 0x3e,
  0x0a, 0x53, 0x95, 0xbd, 0xab, 0x18, 0x92, 0x3d, 0x63, 0x17, 0x8c, 0x3e,
  0xf3, 0xcd, 0xb8, 0xbd, 0xaf, 0xfa, 0x47, 0x3d, 0x0d, 0x95, 0xe6, 0x3d,
  0x2e, 0xb6, 0x93, 0x3e, 0xda, 0xfd, 0xb5, 0x3e, 0xef, 0x15, 0x0c, 0xbd,
  0xfe, 0xd3, 0x8b, 0xbe, 0x61, 0xb2, 0xd8, 0xbe, 0xf4, 0x4b, 0x8d, 0x3d,
  0xdc, 0x94, 0x6d, 0xbf, 0x1a, 0x29, 0x15, 0xbd, 0x04, 0xe4, 0x98, 0xbe,
  0x4e, 0xd3, 0xa9, 0xbd, 0x84, 0x4c, 0x8a, 0xbd, 0x1c, 0x08, 0x96, 0x3e,
  0x81, 0xa3, 0x84, 0xbd, 0x28, 0xec, 0x39, 0x3d, 0xdc, 0x17, 0x43, 0x3e,
  0xc7, 0xd6, 0x8d, 0xbe, 0x98, 0x02, 0x1b, 0xbe, 0x8c, 0x17, 0xd6, 0xbe,
  0x18, 0x06, 0x91, 0xbf, 0x17, 0x0b, 0x7c, 0x3e, 0x4c, 0x3d, 0xd1, 0x3d,
  0x7c, 0x74, 0xe0, 0xbd, 0x97, 0xf1, 0xa2, 0xbf, 0x3a, 0x80, 0xb1, 0x3d,
  0xa6, 0xc1, 0x1c, 0xbf, 0x86, 0xaf, 0x50, 0xbf, 0xcc, 0x19, 0xdf, 0xbe,
  0x4a, 0x8f, 0x6d, 0x3e, 0x36, 0x60, 0xee, 0xbd, 0xfc, 0x35, 0x35, 0xbe,
  0x8c, 0xd6, 0x82, 0x3e, 0x82, 0x32, 0x0a, 0x3e, 0xe1, 0x80, 0x27, 0x3e,
  0x3b, 0x32, 0x5c, 0x3e, 0x96, 0xc6, 0xae, 0x3e, 0xe5, 0x49, 0x0a, 0x3f,
  0xfc, 0xcb, 0xf3, 0x3e, 0x1e, 0x31, 0x62, 0x3e, 0xf2, 0x7b, 0x4f, 0x3e,
  0xf3, 0x53, 0x86, 0x3e, 0x48, 0x52, 0xa8, 0x3e, 0xc5, 0xbb, 0x1b, 0x3e,
  0x2d, 0xba, 0xba, 0x3d, 0xf5, 0x5c, 0x32, 0x3c, 0xad, 0x24, 0x66, 0x3e,
  0x98, 0x44, 0x69, 0x3e, 0x0b, 0x92, 0xe9, 0xbd, 0x70, 0x49, 0xe8, 0xbd,
  0x19, 0x50, 0x2c, 0xbf, 0x4f, 0x21, 0xf7, 0xbe, 0x78, 0x56, 0xd5, 0xbd,
  0x7a, 0x81, 0x28, 0xbd, 0xf3, 0x54, 0x0c, 0xbf, 0xcd, 0xd4, 0x5c, 0xbf,
  0xaf, 0xab, 0x4b, 0xbe, 0x1d, 0xbe, 0x83, 0x3d, 0xac, 0x70, 0xe8, 0xbb,
  0x15, 0xc8, 0x07, 0xbf, 0x15, 0x3c, 0x85, 0xbe, 0xba, 0x8b, 0xb5, 0xbe,
  0xa2, 0x1d, 0x54, 0xbe, 0x3a, 0xf2, 0xea, 0x3d, 0x01, 0xde, 0x0d, 0x3f,
  0xd8, 0x16, 0x21, 0xbf, 0x0f, 0x84, 0x28, 0xbf, 0x50, 0xe8, 0x6c, 0xbe,
  0x9a, 0x9a, 0xe4, 0xbe, 0xe3, 0xdd, 0x3e, 0xbe, 0x5b, 0x66, 0x0f, 0xbe,
  0x32, 0x8f, 0x4a, 0x3d, 0x43, 0xd0, 0xd4, 0xbe, 0xde, 0x49, 0x8a, 0xbd,
  0xc2, 0x36, 0x6f, 0xbc, 0xd5, 0xdf, 0xa2, 0x3c, 0x0e, 0xae, 0xdd, 0x3e,
  0x42, 0x19, 0x80, 0xbc, 0x69, 0xf5, 0x12, 0xbc, 0x96, 0x7f, 0x9e, 0x3d,
  0x6d, 0x83, 0x6d, 0xbe, 0x80, 0x18, 0x89, 0xbe, 0x84, 0x09, 0x9c, 0xbe,
  0xfd, 0x4b, 0x0b, 0xbf, 0x84, 0x8b, 0xce, 0xbe, 0xd8, 0x7b, 0xb1, 0x3d,
  0x33, 0x09, 0x0a, 0x3e, 0x86, 0x95, 0x93, 0xbd, 0x0f, 0x78, 0x51, 0x3e,
  0x17, 0xdf, 0x87, 0xbe, 0x83, 0xe5, 0xac, 0xbd, 0xd0, 0x55, 0x8a, 0x3e,
  0x7a, 0xda, 0x5f, 0x3f, 0x23, 0x1a, 0x67, 0xbe, 0xf0, 0x22, 0x1e, 0xbe,
  0x1e, 0x4d, 0xf4, 0x3d, 0xf7, 0xbc, 0xa4, 0x3e, 0xdf, 0xfb, 0x8d, 0xbe,
  0x38, 0x12, 0x7e, 0xbe, 0x98, 0xfa, 0x35, 0x3e, 0x94, 0x57, 0x9f, 0x3e,
  0x42, 0x03, 0x92, 0xbe, 0x70, 0x5a, 0x9e, 0xbc, 0x98, 0x98, 0x7c, 0xbe,
  0xb8, 0x40, 0xba, 0x3e, 0x4e, 0xd5, 0x8c, 0xbf, 0x86, 0x82, 0x00, 0xbe,
  0x25, 0x6f, 0xbd, 0x3e, 0x81, 0xec, 0x00, 0xbf, 0xfd, 0x35, 0xe0, 0xbe,
  0xeb, 0x25, 0x39, 0xbe, 0x05, 0xff, 0xe9, 0x3e, 0x39, 0xbc, 0x3e, 0x3e,
  0x00, 0x44, 0x50, 0xbe, 0x1a, 0x42, 0xf7, 0xbd, 0xcb, 0xdd, 0x29, 0x3e,
  0x0a, 0x21, 0xa1, 0x3e, 0x87, 0x1e, 0x83, 0xbe, 0xf2, 0xfd, 0x43, 0x3d,
  0xbe, 0x3c, 0x15, 0x3f, 0x48, 0xdd, 0x33, 0xbd, 0x6c, 0x5e, 0xae, 0x3e,
  0x47, 0xb6, 0xa2, 0x3d, 0x0d, 0x84, 0x24, 0x3e, 0xee, 0x34, 0x23, 0x3d,
  0xee, 0x17, 0x65, 0x3e, 0xf2, 0xf9, 0xf6, 0x3d, 0x8c, 0x38, 0xe7, 0xbd,
  0x8c, 0xbb, 0xa9, 0x3c, 0xa4, 0xfd, 0x93, 0xbc, 0x85, 0x31, 0x67, 0x3d,
  0x95, 0x13, 0x3e, 0x3e, 0xb0, 0x85, 0x8e, 0x3c, 0xaf, 0xa5, 0x78, 0x3e,
  0x0e, 0xcf, 0x6f, 0xbc, 0x98, 0xeb, 0xea, 0xbe, 0xd3, 0xaa, 0x3d, 0xbe,
  0xe0, 0x43, 0xee, 0x3e, 0xcc, 0x75, 0x2b, 0x3e, 0x6d, 0x70, 0x1f, 0xbf,
  0x17, 0x20, 0x3c, 0x3f, 0x25, 0xbf, 0xe0, 0x3e, 0x2a, 0x8d, 0xb2, 0x3e,
  0x87, 0x83, 0xb9, 0xbe, 0x48, 0x01, 0xe5, 0xbe, 0xf6, 0x6b, 0x1d, 0xbe,
  0x6b, 0xaf, 0xa3, 0xbe, 0x98, 0x35, 0xce, 0xbe, 0x9a, 0xeb, 0x88, 0xbf,
  0xf1, 0xe8, 0x0d, 0x3e, 0x0d, 0xea, 0x1f, 0xbe, 0x76, 0xb1, 0x92, 0xbe,
  0x7c, 0x00, 0x15, 0xbf, 0x57, 0x4c, 0xe6, 0x3c, 0xa7, 0x6f, 0x26, 0xbf,
  0xe6, 0x59, 0x09, 0xbf, 0xd2, 0x45, 0x09, 0x3a, 0xa2, 0x1d, 0xf0, 0xbe,
  0x96, 0x53, 0xe9, 0xbe, 0xbb, 0xdf, 0x90, 0xbd, 0x36, 0xaa, 0x8e, 0x3e,
  0x44, 0x58, 0x65, 0x3e, 0xf9, 0x63, 0xe3, 0xbc, 0x92, 0x21, 0x7d, 0xbe,
  0xe6, 0x4f, 0x59, 0xbf, 0xbf, 0xae, 0xc1, 0x3e, 0xe0, 0xab, 0x45, 0x3e,
  0x6f, 0x84, 0x35, 0xbe, 0x2f, 0xfb, 0xbb, 0xbc, 0x2b, 0xa7, 0x6a, 0xbe,
  0x12, 0x60, 0xf6, 0xbd, 0x0f, 0x07, 0x50, 0x3d, 0x12, 0x4d, 0xd5, 0x3e,
  0xd4, 0xfc, 0xbe, 0x3e, 0x52, 0xae, 0xf8, 0x3d, 0x47, 0x8a, 0x3b, 0x3e,
  0x98, 0xff, 0x0d, 0xbf, 0xb9, 0x25, 0xdb, 0xbe, 0xb2, 0x40, 0x48, 0xbf,
  0xfc, 0xa3, 0x63, 0xbf, 0x15, 0x68, 0xb4, 0x3a, 0xf2, 0xc6, 0x79, 0x3e,
  0xe6, 0x93, 0x09, 0x3d, 0xd2, 0x37, 0x43, 0xbd, 0xd4, 0x73, 0xf3, 0x3e,
  0xc4, 0xc2, 0x5b, 0x3e, 0xf5, 0xae, 0xfe, 0x3e, 0x3d, 0x19, 0xd4, 0x3e,
  0x31, 0x69, 0xb4, 0x3e, 0x86, 0x5b, 0xe9, 0xbd, 0x2f, 0xab, 0x19, 0x3e,
  0x73, 0xba, 0x3f, 0x3c, 0x18, 0x99, 0x51, 0x3f, 0x24, 0xff, 0x2f, 0x3e,
  0x0c, 0x75, 0x53, 0x3c, 0x27, 0xb7, 0x0a, 0x3e, 0x02, 0xee, 0x89, 0x3e,
  0x3e, 0x18, 0x31, 0xbd, 0xe5, 0xc4, 0x19, 0xbe, 0x17, 0x4a, 0xc9, 0xbe,
  0xd9, 0x39, 0x94, 0x3c, 0x63, 0x90, 0xc3, 0xbe, 0x5f, 0xeb, 0xea, 0xbe,
  0x38, 0xd4, 0x1e, 0xbf, 0xfc, 0xca, 0xfb, 0x3d, 0x71, 0x05, 0x80, 0xbf,
  0x4b, 0xc7, 0x8b, 0xbf, 0xa7, 0xb9, 0x30, 0xbf, 0x39, 0xc3, 0xfa, 0x3e,
  0xb9, 0xa9, 0xb2, 0xbd, 0x6c, 0x73, 0xca, 0x3e, 0xc8, 0x57, 0xd1, 0x3e,
  0x0a, 0xb0, 0xe1, 0x3e, 0xbd, 0x3f, 0x1c, 0x3e, 0x45, 0xc5, 0xc0, 0x3e,
  0xed, 0x3b, 0x17, 0x3f, 0x20, 0xce, 0x97, 0x3e, 0xae, 0x8f, 0x47, 0x3e,
  0x96, 0x65, 0xf5, 0x3e, 0x62, 0x5b, 0xe2, 0x3e, 0x92, 0xe5, 0x07, 0xbe,
  0x8a, 0x65, 0x8e, 0x3d, 0xfb, 0x27, 0x7f, 0x3e, 0x2c, 0xd5, 0x9a, 0x3e,
  0x5e, 0x4c, 0xc4, 0x3e, 0x7a, 0xfd, 0xe4, 0x3d, 0xb5, 0x11, 0xf5, 0x3d,
  0x47, 0x87, 0x19, 0x3e, 0x30, 0xa8, 0x87, 0xbe, 0x02, 0x1a, 0x59, 0xbe,
  0x93, 0x69, 0x10, 0xbf, 0xc8, 0x86, 0xeb, 0xbe, 0xbe, 0x63, 0x02, 0xbf,
  0x45, 0x40, 0x8b, 0x3e, 0x5c, 0x40, 0xf1, 0xbe, 0x92, 0x71, 0x44, 0xbf,
  0xfb, 0xb4, 0x56, 0x3e, 0x23, 0x30, 0x40, 0x3d, 0x77, 0xc0, 0x93, 0x3e,
  0x1e, 0xa3, 0x92, 0x3e, 0x28, 0x23, 0xb8, 0xbd, 0x78, 0x2f, 0x02, 0xbf,
  0x3c, 0x6b, 0xe9, 0xbd, 0xb5, 0x94, 0x66, 0xbe, 0x2a, 0x61, 0x17, 0xbf,
  0x0b, 0xb8, 0x26, 0x3e, 0xc6, 0x99, 0x11, 0xbf, 0x6b, 0x39, 0x33, 0xbf,
  0x8b, 0x08, 0xd1, 0xbe, 0x42, 0xe1, 0xca, 0x3d, 0x4d, 0x35, 0xa2, 0x3c,
  0xe8, 0x5a, 0x24, 0xbf, 0xda, 0xa4, 0x99, 0xbe, 0x3d, 0x66, 0x47, 0xbf,
  0x42, 0xd4, 0x0e, 0xbf, 0x42, 0x00, 0x31, 0xbf, 0xf0, 0x5e, 0x41, 0xbf,
  0xb7, 0xb6, 0x58, 0xbf, 0xa3, 0x9f, 0x0e, 0xbf, 0x0c, 0xb9, 0x86, 0xbe,
  0x13, 0x65, 0x8e, 0xbf, 0x90, 0xa5, 0x4f, 0xbe, 0x2d, 0xca, 0x05, 0xbd,
  0x1b, 0x14, 0xe2, 0xbd, 0x78, 0xd9, 0x94, 0xbf, 0xc0, 0x5f, 0xfe, 0x3d,
  0x36, 0x03, 0x86, 0x3e, 0xda, 0x10, 0xbd, 0x3e, 0xc6, 0xe6, 0x1d, 0xbf,
  0xa9, 0x1c, 0x4f, 0x3e, 0x46, 0xcc, 0x22, 0xbe, 0xc0, 0x21, 0x23, 0x3e,
  0x1a, 0x3c, 0x75, 0xbe, 0x08, 0x03, 0x87, 0x3c, 0xb5, 0xb0, 0x21, 0x3d,
  0x31, 0x62, 0xee, 0x3d, 0x50, 0x82, 0x73, 0xbd, 0xd7, 0x12, 0xd4, 0x3d,
  0xdc, 0xc2, 0x21, 0x3e, 0x70, 0x26, 0x4b, 0x3e, 0xae, 0x74, 0xd8, 0x3d,
  0xf1, 0xd5, 0x6a, 0xbd, 0x87, 0x31, 0x0f, 0xbe, 0xc7, 0x2a, 0x2f, 0x3e,
  0x18, 0x7a, 0x8e, 0x3e, 0x6e, 0xa6, 0x38, 0x3e, 0x2e, 0x85, 0xbc, 0x3d,
  0xf4, 0x1e, 0x83, 0x3e, 0x5e, 0x67, 0xb3, 0xbe, 0xe9, 0x79, 0x65, 0x3d,
  0x4e, 0x85, 0x05, 0xbf, 0x30, 0xf6, 0x65, 0xbf, 0x16, 0x1c, 0x4a, 0xbe,
  0x4e, 0x72, 0xe1, 0xbd, 0xe1, 0x74, 0x5c, 0xbe, 0x2c, 0xf8, 0x32, 0xbe,
  0x81, 0x60, 0x3c, 0x3e, 0x6b, 0xbd, 0x64, 0xbd, 0xd5, 0xb0, 0xc1, 0x3e,
  0xd2, 0x33, 0x86, 0x3e, 0x29, 0x57, 0xf2, 0x3e, 0x80, 0xec, 0x22, 0xbe,
  0x12, 0x89, 0x64, 0xbe, 0x7a, 0xa2, 0x4f, 0xbd, 0x61, 0x68, 0xb0, 0xbe,
  0x97, 0xd7, 0xa6, 0xbd, 0x3d, 0x58, 0xe1, 0xbe, 0x7b, 0x0b, 0xf4, 0xbe,
  0xb9, 0x0c, 0x1b, 0x3b, 0x2d, 0x3f, 0x8a, 0x3e, 0xd0, 0x41, 0x11, 0xbe,
  0xda, 0xe0, 0xcb, 0xbc, 0x84, 0xe6, 0xc3, 0xbe, 0x3f, 0x7a, 0xc5, 0x3d,
  0xc9, 0xe2, 0xfb, 0xbd, 0xba, 0x00, 0xb3, 0x3e, 0x4b, 0xba, 0x2a, 0xbe,
  0x71, 0x29, 0xfc, 0x3d, 0x12, 0xfd, 0xb4, 0x3c, 0x99, 0xa2, 0x72, 0x3d,
  0xbb, 0xd5, 0xce, 0x3d, 0xf7, 0xde, 0x45, 0xbe, 0x72, 0x7d, 0x2c, 0xbf,
  0x23, 0x4e, 0xd4, 0xbe, 0xc8, 0xf6, 0x8e, 0x3c, 0xb8, 0xbe, 0x30, 0xbf,
  0x31, 0xb4, 0x14, 0xbf, 0xb1, 0x5b, 0xa4, 0xbe, 0x57, 0x9f, 0xdd, 0xbe,
  0x96, 0x89, 0x6e, 0xbe, 0xf9, 0xf9, 0x93, 0xbe, 0xcf, 0xad, 0x2e, 0xbe,
  0xd8, 0xe0, 0x28, 0xbe, 0x9b, 0x0f, 0x24, 0xbf, 0x95, 0xb7, 0x25, 0xbf,
  0xf4, 0x6c, 0xc1, 0xbe, 0x39, 0x55, 0x36, 0xbf, 0x08, 0xc8, 0x93, 0xbe,
  0xa9, 0x87, 0x2b, 0xbe, 0x20, 0x12, 0x38, 0xbe, 0x8f, 0xed, 0xf6, 0xbd,
  0xdd, 0x46, 0xcf, 0x3e, 0x8f, 0xd8, 0x61, 0xbd, 0xf4, 0xfb, 0x80, 0xbd,
  0xca, 0x25, 0x75, 0x3e, 0xd8, 0xf4, 0x8c, 0x3e, 0x85, 0xf4, 0xba, 0x3d,
  0x90, 0xe3, 0x6e, 0x3e, 0x1a, 0x66, 0x33, 0xbe, 0xcc, 0x63, 0x54, 0xbe,
  0x74, 0x67, 0x97, 0x3d, 0xa0, 0x1d, 0x90, 0x3e, 0xf2, 0x7a, 0x2d, 0x3d,
  0x16, 0xb9, 0xaa, 0x3e, 0xfd, 0xbc, 0x41, 0x3d, 0xea, 0xdc, 0x05, 0xbf,
  0x4b, 0xcd, 0x4f, 0x3e, 0xc4, 0xb9, 0xc4, 0xbd, 0xd4, 0x6a, 0xbd, 0x3c,
  0x43, 0x6e, 0x52, 0x3e, 0xf2, 0xcb, 0x4e, 0x3e, 0xb3, 0x62, 0x9a, 0x3e,
  0x38, 0x23, 0x8e, 0x3d, 0x3c, 0x69, 0x57, 0xbd, 0x25, 0x47, 0x15, 0xbf,
  0x64, 0x7f, 0xaf, 0xbd, 0x8e, 0x1a, 0xdc, 0x3e, 0xe7, 0x3b, 0x9f, 0xbe,
  0xf0, 0x7b, 0xfd, 0xbe, 0x21, 0xc5, 0x05, 0xbf, 0xce, 0xf8, 0xc0, 0xbe,
  0xf4, 0x9f, 0xef, 0xbe, 0x34, 0x08, 0x0f, 0xbe, 0x3b, 0x56, 0x96, 0xbd,
  0xaf, 0x4e, 0xf0, 0xbe, 0x2e, 0x43, 0x9d, 0xbe, 0xb6, 0x6f, 0xd4, 0xbe,
  0xce, 0x1b, 0x6c, 0x3e, 0x03, 0xa2, 0x19, 0xbe, 0xcf, 0x7a, 0x13, 0xbf,
  0xa3, 0xe6, 0x59, 0xbf, 0xbc, 0x16, 0x39, 0xbe, 0xcf, 0x6a, 0x0f, 0xbe,
  0x34, 0xd3, 0x9c, 0xbd, 0x92, 0xfe, 0xff, 0xff, 0x10, 0x00, 0x00, 0x00,
  0x05, 0x00, 0x00, 0x00, 0x14, 0x00, 0x00, 0x00, 0x34, 0x00, 0x00, 0x00,
  0x02, 0x00, 0x00, 0x00, 0x0a, 0x00, 0x00, 0x00, 0x40, 0x00, 0x00, 0x00,
  0x1d, 0x00, 0x00, 0x00, 0x73, 0x65, 0x71, 0x75, 0x65, 0x6e, 0x74, 0x69,
  0x61, 0x6c, 0x5f, 0x31, 0x30, 0x2f, 0x64, 0x65, 0x6e, 0x73, 0x65, 0x5f,
  0x31, 0x30, 0x2f, 0x4d, 0x61, 0x74, 0x4d, 0x75, 0x6c, 0x00, 0x00, 0x00,
  0x00, 0xfe, 0xff, 0xff, 0xfe, 0xfe, 0xff, 0xff, 0x04, 0x00, 0x00, 0x00,
  0x08, 0x00, 0x00, 0x00, 0xff, 0xff, 0xff, 0xff, 0x40, 0x00, 0x00, 0x00,
  0x00, 0x00, 0x0e, 0x00, 0x18, 0x00, 0x08, 0x00, 0x07, 0x00, 0x0c, 0x00,
  0x10, 0x00, 0x14, 0x00, 0x0e, 0x00, 0x00, 0x00, 0x00, 0x00, 0x00, 0x02,
  0x10, 0x00, 0x00, 0x00, 0x04, 0x00, 0x00, 0x00, 0x10, 0x00, 0x00, 0x00,
  0x30, 0x00, 0x00, 0x00, 0x01, 0x00, 0x00, 0x00, 0x02, 0x00, 0x00, 0x00,
  0x1e, 0x00, 0x00, 0x00, 0x73, 0x65, 0x71, 0x75, 0x65, 0x6e, 0x74, 0x69,
  0x61, 0x6c, 0x5f, 0x31, 0x30, 0x2f, 0x66, 0x6c, 0x61, 0x74, 0x74, 0x65,
  0x6e, 0x5f, 0x31, 0x30, 0x2f, 0x43, 0x6f, 0x6e, 0x73, 0x74, 0x00, 0x00,
  0x6c, 0xfe, 0xff, 0xff, 0x6a, 0xff, 0xff, 0xff, 0x04, 0x00, 0x00, 0x00,
  0x28, 0x00, 0x00, 0x00, 0xde, 0xa7, 0x84, 0xbe, 0xae, 0x96, 0x52, 0x3f,
  0x45, 0x3f, 0x5c, 0xbe, 0x87, 0x37, 0x18, 0xbf, 0x27, 0x98, 0x64, 0x3e,
  0x71, 0xbb, 0xb6, 0x3e, 0x98, 0x70, 0x8e, 0xbd, 0x02, 0xf6, 0xea, 0x3e,
  0xb1, 0x64, 0x03, 0xbf, 0x5f, 0x58, 0x10, 0x3e, 0x7a, 0xff, 0xff, 0xff,
  0x10, 0x00, 0x00, 0x00, 0x03, 0x00, 0x00, 0x00, 0x10, 0x00, 0x00, 0x00,
  0x4c, 0x00, 0x00, 0x00, 0x01, 0x00, 0x00, 0x00, 0x0a, 0x00, 0x00, 0x00,
  0x36, 0x00, 0x00, 0x00, 0x73, 0x65, 0x71, 0x75, 0x65, 0x6e, 0x74, 0x69,
  0x61, 0x6c, 0x5f, 0x31, 0x30, 0x2f, 0x64, 0x65, 0x6e, 0x73, 0x65, 0x5f,
  0x31, 0x30, 0x2f, 0x42, 0x69, 0x61, 0x73, 0x41, 0x64, 0x64, 0x2f, 0x52,
  0x65, 0x61, 0x64, 0x56, 0x61, 0x72, 0x69, 0x61, 0x62, 0x6c, 0x65, 0x4f,
  0x70, 0x2f, 0x72, 0x65, 0x73, 0x6f, 0x75, 0x72, 0x63, 0x65, 0x00, 0x00,
  0x04, 0x00, 0x06, 0x00, 0x04, 0x00, 0x00, 0x00, 0x00, 0x00, 0x06, 0x00,
  0x08, 0x00, 0x04, 0x00, 0x06, 0x00, 0x00, 0x00, 0x04, 0x00, 0x00, 0x00,
  0x10, 0x00, 0x00, 0x00, 0x52, 0xd3, 0x5c, 0x3e, 0xe8, 0x64, 0x98, 0x38,
  0x1d, 0xae, 0x91, 0xbb, 0x88, 0x21, 0x78, 0xbc, 0x00, 0x00, 0x0e, 0x00,
  0x14, 0x00, 0x04, 0x00, 0x00, 0x00, 0x08, 0x00, 0x0c, 0x00, 0x10, 0x00,
  0x0e, 0x00, 0x00, 0x00, 0x10, 0x00, 0x00, 0x00, 0x02, 0x00, 0x00, 0x00,
  0x10, 0x00, 0x00, 0x00, 0x48, 0x00, 0x00, 0x00, 0x01, 0x00, 0x00, 0x00,
  0x04, 0x00, 0x00, 0x00, 0x37, 0x00, 0x00, 0x00, 0x73, 0x65, 0x71, 0x75,
  0x65, 0x6e, 0x74, 0x69, 0x61, 0x6c, 0x5f, 0x31, 0x30, 0x2f, 0x63, 0x6f,
  0x6e, 0x76, 0x32, 0x64, 0x5f, 0x31, 0x30, 0x2f, 0x42, 0x69, 0x61, 0x73,
  0x41, 0x64, 0x64, 0x2f, 0x52, 0x65, 0x61, 0x64, 0x56, 0x61, 0x72, 0x69,
  0x61, 0x62, 0x6c, 0x65, 0x4f, 0x70, 0x2f, 0x72, 0x65, 0x73, 0x6f, 0x75,
  0x72, 0x63, 0x65, 0x00, 0x90, 0xff, 0xff, 0xff, 0x14, 0x00, 0x18, 0x00,
  0x04, 0x00, 0x00, 0x00, 0x08, 0x00, 0x0c, 0x00, 0x10, 0x00, 0x00, 0x00,
  0x00, 0x00, 0x14, 0x00, 0x14, 0x00, 0x00, 0x00, 0x14, 0x00, 0x00, 0x00,
  0x01, 0x00, 0x00, 0x00, 0x20, 0x00, 0x00, 0x00, 0x44, 0x00, 0x00, 0x00,
  0x2c, 0x00, 0x00, 0x00, 0x04, 0x00, 0x00, 0x00, 0x01, 0x00, 0x00, 0x00,
  0x1c, 0x00, 0x00, 0x00, 0x1c, 0x00, 0x00, 0x00, 0x01, 0x00, 0x00, 0x00,
  0x0f, 0x00, 0x00, 0x00, 0x63, 0x6f, 0x6e, 0x76, 0x32, 0x64, 0x5f, 0x31,
  0x30, 0x5f, 0x69, 0x6e, 0x70, 0x75, 0x74, 0x00, 0x04, 0x00, 0x00, 0x00,
  0xff, 0xff, 0xff, 0xff, 0x1c, 0x00, 0x00, 0x00, 0x1c, 0x00, 0x00, 0x00,
  0x01, 0x00, 0x00, 0x00, 0xfc, 0xff, 0xff, 0xff, 0x04, 0x00, 0x04, 0x00,
  0x04, 0x00, 0x00, 0x00
};
unsigned int models_mnist_tflite_len = 4636;
